be9b2694
be71ad69
3e90ea1d
3caae06b
be401b17
3ea91096
bd26b4f8
3be0881d
be0959aa
3e20223c
3e0d74ab
be244486
bb640b23
be862487
bce5c6d4
3ded1299
bd7258de
3e6fb5d4
bcb36fbd
3dbb862b
3e0e7cb3
3cb068de
be86cceb
bca802a9
3b262464
3de57cd1
bdaa02c4
bc73d7a5
3e9da512
3c5b3a36
be98d306
3e168d34
3da6e823
3d71c9e5
3e4081ec
be8a58ca
3e6b6128
be66d93c
be79fc9e
be8a98ca
