3e8fba4f
bdff8ae7
3e0f7c6d
3e1ccf43
3e3ab57e
be42bdef
3e9c54a8
3cbf1edc
ba19b6c1
be9e466e
bd46c219
3e8bd699
3bea6b3e
bdeb9932
bd9dc9cc
bcbb6f06
3e0f17b7
bea37101
bda22281
3e2c0e28
3d86daae
3d90135c
3e9b90e8
beb20c97
3e4ffeb5
bda11f21
be2d330a
3e2c9bd4
be777b7b
be4ac840
3e17dfa0
bd1c3e7f
be7d2f72
be9a2d95
bb39643d
bebe1d63
be406072
3e979113
bc2dfc69
3ea52e2a
3e71d678
be9b2694
3cf37953
3e0f4abd
3e0f29fc
3e6b3c1d
3e57130b
3dfe20b8
be71ad69
bd2c3fe9
bb2bb5d3
3df9d835
bde61264
3d895cb8
3d9e75b3
3e7e11e9
3d84007f
3dff8b8a
beced514
be541141
3e2d2fd2
3ea7cfac
be06c990
bd34f8c8
3e3c30d0
be38ba43
3e9efb64
bda322ef
3e90ea1d
3caae06b
be401b17
be8f0bf8
3da5c85c
3cda8dcf
bebccd46
bc555ab7
3e78fb9d
bda737f3
3ea91096
bd26b4f8
3be0881d
be0959aa
3e20223c
be90fbad
be944665
bd812a7c
3daacefc
3eac8325
be494f99
3e0d74ab
be244486
bb640b23
be862487
bce5c6d4
3ded1299
bddff78c
bdbd14b6
3e937b8e
be7d82a6
bddd6db7
bd3a0077
3e82cdd9
be740cad
3e067acc
bd929812
be92c26b
bbd04477
3e48f480
be358940
3e81f5f9
be4cf71a
3ecbb88f
bda80e0e
3e4c72cb
bea707ad
3df4e4e0
bc242bd7
be6afb61
be87a34d
3cc4fa9b
be594be0
bcc5aae3
bdeb8172
3d2fb6b2
beafa2c8
be86015f
bdf3b62e
3eb3d7b8
be86ff8d
3ebdc3d0
3de150de
3e3bc875
be8cc4c3
be64a80f
be994b79
3da9fe7d
3ea98fa6
3e68fb2b
bd94e5a8
bda37d83
3e90f07f
be22168b
be5de1fb
3e26d0d4
3d5ab22a
3e9c103d
bec16e18
bd77fa79
be63a03c
3e3e4a33
3d9dc8ac
3df79b41
3df7970c
3ea390a6
bc1bdb10
be3d0b6d
bea0d234
be859a73
bdb6ac76
be71d8ee
3e41eb27
3e6873b1
bd80cecc
be9c314d
be9b51c3
3e5fc6e0
beb553ce
3e4680b0
3e665edb
3eab9d13
3c93ad34
be63af60
bda67467
bea81fb2
3e6e76bc
3b934c08
3d05ab4e
be493958
3da814ab
3d3ee2fb
be3139a0
3d9aad33
bea3a2fe
3d39ff68
bdc736cc
3eb575bc
be861443
be45a552
3daf33cf
bea00c2c
3ea2ee70
be6fd609
be6a9931
bdd00e93
3cb8bee7
bdf38ad0
3dc92684
3eb44c15
3b96eae5
be356259
3df71aef
be816656
be82cff4
be96447f
3db65b08
3ea78ef7
3e7abc83
3e663655
be4867e9
be4490f2
bd4ee999
3e926277
3e8f5cfd
bde45384
bce22642
be827fb2
3e755969
3e36951e
3e830233
bdcf5bf1
3b8e810c
3e04140c
bc727c91
3c74abe9
be52b142
be9292fc
3e248c43
be9ed385
beafabe9
3e757182
3e58f898
3eb1df03
bdbd02f1
be9de916
3e9f0f5b
3dea27f3
3ea3bdae
be7fcef1
3e00e7f7
be1193a9
3db56e1e
bdf0575e
3e72fc4a
be0cff7a
be0da046
bec1c6f8
3c816ad6
be4123cd
3dd196b4
be5afa33
bdef55c4
be90e58f
bde09dce
3e64fc65
3e7c1471
3edc4042
3ab6ed4e
bc39bb27
bddd4afc
3da2b627
3e533811
3d010c0c
3e752ff6
3e8d5de3
be91ab8c
bd54c1d1
be804163
bd924f08
be9b4491
be73744d
3ed30776
3deb7015
be8302d2
3df29202
3e3435f1
3dac6086
3d73f1a0
3e7a7df0
3e8c5438
bc01019a
be648ea0
bd9f84ba
3e9654e9
be3600bd
be8ff83b
be943f21
3d5550aa
be3947b4
be80a2b6
bd515aa8
3e9e5d7c
3e9859eb
3e334a2b
3e3ccc92
bdab736c
3e49d34e
3d87a970
bd7258de
3e6fb5d4
bcb36fbd
3dbb862b
3e0e7cb3
3cb068de
be86cceb
bca802a9
3b262464
3de57cd1
bdaa02c4
bc73d7a5
3e9da512
3c5b3a36
be98d306
3e168d34
3da6e823
3d71c9e5
3e4081ec
be8a58ca
3e6b6128
be66d93c
be79fc9e
