bca08236
bde0c38a
3c2aebc8
be1a77de
bcd0198a
3d80cdda
be28c33b
bd7042a0
3d55a9b4
bd0805a8
3c1702be
3dc98d3f
be039ff0
be2ef8cf
be031d28
3cc02e52
bcc496a1
bdaadfbf
bde39e44
bd60baa3
be35ad08
3e0b8f42
be2ec61b
3da802ba
bdf8f2fa
3d79a773
be02bbb9
bddcc137
3c8fa1af
3d6c70c9
be119599
3cb1d563
be37e736
3c3ce899
bdb5818a
3d166dba
bde9a069
3c3febe6
3e0a20cf
3ce4be9b
be347797
bc2152ca
be0db1bd
3d452b7e
3c751939
3dc3c205
bdc46430
3e023359
bd8c1c8a
bbcad94b
3db94cf7
3e4529c2
bdc77dd1
bb7b81a0
3e0df28e
bde6d568
be130a19
3dfa1adc
3d0be50f
3dfeaa54
be039c4b
be0a48b3
3e12d2e5
3da0610a
3de94611
bde04607
3e0e4791
3e2f34de
bdc66ccb
3c010e6e
3cf7ca91
bca60f7e
3e11fb95
3dd1bfce
be3dfd5f
bbcd43c7
3d25c832
3c7ca91e
3ae10129
be09d94e
be3aff82
bd66047f
3e23a52f
bdefe57f
3e05cc0a
be22ea1f
bd5f7b87
bc90be29
be0d5791
be4e7da5
3da70502
3da69bbf
be36c0a0
3db2258a
3df55f2c
3df2ac1b
3e3e0249
bc1d1d14
be09ad6e
bd020c3a
3e246d18
3e3494f0
3e1eefe7
3c5c2798
bd694718
3cfaa702
bd5aba7e
3cfcdbce
3c39ae4e
be18a1f9
3dc12b03
3c74af3f
3cd295af
3e2bc751
3c556b92
3df40af8
be136595
3da773bb
bd839a33
3e41f082
bcdb1bfa
be270959
be2116a5
3d316e50
be330855
be11437e
3e25c0eb
3e36e996
3d932474
3de28bb6
be266430
3e0ff7fa
3ce3de2b
3e45e1c7
3e0ed87b
bd8d20ab
3e1dc518
bdd60695
be1abfa3
bdd8819b
3dd06c45
bda5ae43
bd604d4a
bcbd6620
be0342b2
bd9a38ed
3d7d0a92
3ddcfc73
bd3bc696
bc782d93
bdb350f7
be215454
bdf59a29
3e1dffc7
3dd878cb
3d80abb9
3d8342c4
bd8c69ac
bd8d6314
be0c8802
be118f26
bd8606fc
bd4882a3
bdcfc971
3d869497
be15ff65
bde73db4
be5a3da5
bdb0ec6f
3c3169c4
be18da42
bdb5f3b1
be1f0d86
3de40297
bd0e1d7b
3d05a38a
be1b09c4
bdce8e9f
3dbc87ef
3e3bb3b1
bcd91135
3d257895
bdd91399
be0ac54c
bc21fd5c
bd7ea749
bd874441
3e1b707f
3e12bc5c
3dedfdbf
bd86aaa9
3cc2b1fa
bdfd2245
3de8fa6b
3d4c65fc
3d1a563c
3d07e61c
3da962d9
bdde6047
bd9fc3f3
3df6cebc
3d5f6b47
bdfe7892
bd4c4483
3cdefbee
3dfb5479
3e2b66fb
bd1868ee
be15a51b
3d4a279e
be2f8154
bbea19da
bd935cd1
3d9f7712
bc6feddb
3e22aa62
be14848c
bc79a499
bdd8e764
bcc45602
bb55c72e
3d69fdd7
3d678d88
bdac3476
be025a5e
3c4d1393
be2d298e
3dfe84ce
3deab054
be0617e0
bde4ae6b
bdd71934
bc12a24b
3dffaeb2
bcb54153
3d04a26a
bd85ec9a
bdda8f7d
bddd68c2
bdd390fd
3cd69007
be331e25
be3095f2
bb9b50ff
bd21360e
bd4b46b0
bd20611b
3d3b87ba
3d345eda
bdc0f657
be027c90
bd3323a3
bd42abb8
be4e54dc
3e17e4b1
3deb55c7
be22f92b
3e4b94f7
bb9ef6b4
bc33d3c6
3e1b9c27
3e2385b8
bd8a4af2
3e595f72
bde2dbc8
bda5b147
3d7f6690
bdf177fd
3d9b3169
bd8c58b7
bcbf2beb
bdaaaeb4
3e16dc18
bc332e5d
3d193565
bcbeddef
3e11c11d
3dc8c79f
bcd04243
3e125d6a
3da74117
3d4c32e8
bce50c21
3c3c0f2d
bdff527b
3ddc573f
3e0b0dca
be4dc0de
3d9de346
be2b4d3a
3cdd6693
3dca9f6b
3da4147f
3d8e38fe
3e02a274
be196c62
bbb8d346
be12e534
3e2541cf
bdd0ac96
bd664524
3d913572
bceb4129
bcbdd571
3e018a87
3dec1b88
3bd2da1e
3de62400
bcf40062
bdf196a5
3d94a986
3de14f1a
bdac2089
3b1f9611
be19e70d
3d7c74cb
3dc76a68
3dab8de4
bd97f024
bc70e9a9
3cf83dc1
bd14816e
be3c79de
be1c28ab
bd8c9654
3d2feac0
3cfd15de
3e5ed3cf
be09c19b
bd2c315b
3df14ed2
3d9bf5f7
bd3eec3b
3db496c7
3e292c56
3e24bfa7
bdc0b250
3cff8fb4
be5aa3c9
bc7d7cab
3e32e6da
3d914f83
bdb0fc19
3d48e967
3d6c3e09
bc7f580a
3e487f14
be29ba27
bd276c38
3dfa9870
3e3adacd
3d51fc6f
3dce3cab
3db8e6a6
3dcadc52
be145dbc
be10cd3c
3c9a64cb
3e138f7b
3e10cf19
bdfc29ca
bd919ada
3b9aac33
bd1089e1
3e24033d
3bd4b472
3db56be5
bdd74d69
bdaa4d21
3db6508e
3e5d1226
3ce420b6
be07ca4e
3c95063a
be447997
bcfebd0e
3d66ec80
3db2589a
3d03833e
3c9c8b48
3d546ee7
bd555507
3e07b144
3e2591a5
3dd00faf
be2a1e44
3e33c1f8
bd64f14f
3c8cbacd
3e2c9806
bda183da
3e01caff
be41b32b
be1dc10e
3e4f5f8b
38ad39c5
be3bcc0f
be207fb1
3d103232
bdbb406e
3e0ae24e
3e0caf22
b9d059cd
3e2e2f65
3d3db33f
3c050230
bd4610f1
bdaba34e
3df1d6cc
3e24f734
3d736828
3d0b5175
3da5d6fe
3e10616f
bd5c4ddc
bdb46a73
bccdc084
3cf6349d
3e4d9ba7
bd9d90ed
3cd2ac59
be5731d0
be496dc4
bce312be
bdde5ae7
3dfc7f9e
bd23a07b
3e08952f
bda71e3f
3dc07bac
bd277c2d
3dd561ed
bc1ca662
be0e7330
3bc012af
3dd6b9bf
3ce84d35
bca9493c
3e2ac07f
3d54bbc3
bd55a1b7
bd43de00
bdfd44a9
be0e1bf9
be6e5bd1
3d5cda3c
3d6de7bb
bd537eb0
3d960339
be12f89b
bdb55fca
bd84f135
be375bef
3dac6295
bd9e3239
3e3b9c2f
be290c00
3e3eb466
bd3419d6
bc257203
be0cd800
3d8606de
bc8de3d7
3cb40d04
bd053303
3e2e0495
bded5d06
3db6261a
3c3b6f2a
bc889315
3ba7ff32
3e2d9817
bd80a54a
bd91b6e5
bda14a4a
bcd19caa
be30c24e
bcd4c80b
3e3d97d1
3cdf4884
3db3be88
bd8b099c
bd994093
3dd61dc8
3e292c53
3e32a15a
be317ac6
bdf04f65
be1095c1
3e35beeb
3d7a6ddc
3b1aadfe
3d9737ba
bd945642
be4a9280
3d9c7441
3e3a5624
3e0e15f5
3de9530c
3e152742
3c0e6c15
be15c6ea
3bba968f
be453b8c
be282d3f
bdced737
bd5b9629
3e0d3391
bdbfe97d
bd651816
3e062ab8
be17974b
bb8048e8
3d6ecdd8
3e0da2cb
bd582fe5
bdcd2c90
3d57c5b2
3e374fcb
bde030f8
bbbf2b63
bcdee10e
be0d2fdb
3e2276e5
3e0afd0b
3decf491
3e0cad32
bd83bab2
3d710d4a
bc12a7d1
3e0a54c3
3e105dd3
3d00aaf4
3d9e1b0c
3e226c88
3e0dd99f
3dce277c
bd0903c9
bd95cfa2
3d95c7d1
bddb2001
3cb046de
bda0fb4b
3df98bee
3d27af01
3e2582ea
3e4862bf
bd80d581
3d39bf60
3dfa0060
bd81daf5
3d17ac46
3e12248f
bdd39b2b
bcc2209e
3e061320
3cd8c458
3e112b72
be2b8257
3e4ca1e6
bddc7368
be10625f
bdb90ba2
3d56776f
bdf2a79b
bdd973e1
bd8c9918
3d4b6e3f
3e1699a7
3e0129be
3e1d83df
be0eaf7a
be145d07
be2c7342
be0940a1
3e1048af
3d1305ab
be033f0a
3e40f420
3d970cec
bd018175
bd11010b
3e02d430
3c72b7d4
3e34086e
3d0c0c84
bc862b1b
3d795792
bdac11fe
bdc2a0b5
3c5dfdd5
bd939012
3d8b2a67
bdb9edc8
3d98c923
3de6a021
ba38a712
3d269507
bd8a4095
be436e0f
bdf6596c
bd0d290b
be13a605
3d7d6966
bc18a761
3c80e772
3d69529c
be3c14bd
3d018c54
bdf0100a
3d17e2a7
be2319dc
be19b35a
bdfd7850
bc9f64a0
3c8b888d
3e4c9c08
3d961a42
3e022fa4
bc830431
3e39e851
3c956bcc
3d7567ba
bd810336
be167943
3e068a32
bdbe582f
b882fc4c
3daf59cf
bdfa1a7e
3da2a2bc
bdddf0f3
bdb75f7e
3d2f047e
3dc601ab
bdc16b9a
3e4abd1c
bde42064
3de51780
3dd8a2fb
3b58476f
3db40885
be070fad
bdc92c57
bd35abde
3e071620
3de8ba09
3dc625bd
3d85d358
bd3a024c
be123dc3
bc775f6e
3da6e843
3d441cfa
bd50f8f2
3b9d545a
bdea4ca2
bd77b2a2
3e03f4eb
be3e331e
be24665c
bd7feba9
3e1dce8f
bde93c09
bd6fff94
be1f566c
be258ba5
3de7321a
be066a4c
bc960f95
3e0e2170
3e00ef5c
3e0ed622
bdc29adc
3cf18656
3da45bed
bd373177
bd64223d
bde7eaba
bd40c530
bd525d3e
3c8846b8
bda06cde
3e1bb553
3d235a9a
3dc7dd11
bc69b6c8
bd167331
bdfc131d
bd86e9ea
bd341ea7
bdd10034
bd546a4e
3e08c72a
bdb98b7a
3e04d119
bd33448b
be13b508
bde7b206
be020e9b
bd9f9104
bd941b46
3e1045c8
bd9d9b7a
3dd541ee
bc370cf7
3d36ebd5
bd24da95
bd7cb973
bced1729
3d9a557a
3d8efe57
3c43e5c9
3dafcd21
3e29881d
bdf23fe6
3a625448
3e18c5b0
3da73433
be14d104
3dadfc9f
bd7e4cc3
bc7fe0cd
3d556eb1
bd819cd9
3ca6c0b8
3ce67882
be08bfe7
3d9e5bdb
3dbdd3b3
3c36ccdd
3dddadb8
bdad0423
be0e2d03
be358e66
be0a9114
3ddf9f5e
bdba2ce0
3d74da1e
bd6aa29e
3e040391
bd885375
3c618546
bca34f02
3e0904d7
be02df99
bc2d4911
3e253842
be16b7e5
bd12301e
3e09aea7
3d453a56
3dda6ce1
3e074c46
3c8c48dd
bbdcf65e
bde8cbc7
bc51b88c
3e3f688b
be204223
bde322ad
3e21eb89
be1d5e99
bd075d88
3d0e8571
be49cd09
bc28a1ab
be187394
3d84dc9f
3d10cd91
be1ba613
be274813
be3e7c18
3e214454
be0e3e13
3d93d33b
3df9dd33
3cd1c2ce
bb39de1b
3d34c82f
3df975b6
be34af41
3e0c604b
3e063d6e
bd85af14
bcea3cef
3d95821d
be1de9de
3e017ce5
be1b304d
3d72cad4
3af72a57
bdf80a9a
3e0ac740
3e235d70
be0bc36c
bdfbbd56
3a8e6991
be265f0a
3d612ce2
bd96bb15
3df9b700
bdb823d2
3b4d224a
bdc5c94b
3cb21354
3df49fe6
3d659599
3e2e0f0c
bdab9c56
be2b3655
bbc8c377
3e36fcf2
3da79eee
3d3803d1
3dcc587a
3d916a0a
3e2ffaee
3e0a4aaf
be298307
bccf72d8
bccfbefb
bda016b8
3db9ed8c
bdad0d56
be07d2e3
bd56a391
be150ce3
bdc405f2
bd9dc9b0
be466251
bd12d5e1
bd4ddfc9
be0677cd
3d01e397
3c70b27e
3e23624b
3cc50879
3e113997
3e14e112
3cd3a409
be32a6d5
3cbb24a4
bbdbe1df
3e2fd1b5
3e09ac98
bdea6835
3dbcd08c
bde1aef7
3e2c1375
3de02235
ba098987
3d969263
bbae997d
3df89042
3e05b4bf
be403143
bdbb7abc
3d4580ea
3d38546c
3db658b4
be22fc06
bd1daa7e
3dc0719c
be1dca84
bc9061bb
3e2c7daf
bd42eaa7
bdb314f4
3d330c77
3d6b92c5
3d365f4a
3d5f57c9
be154be5
3de8340e
3db2a5a0
bda0b468
bd0e8d47
3e19f085
bdbbc6aa
be04f3fa
bde23d55
bd991c63
bdffe811
bd8d69b7
bdefa37e
3d10cd1a
ba03fcf2
3c8feb9d
be2693d3
3d0bbbe0
3cac6c6f
bdc62736
be1ebe50
bd77e56c
3e19ba5d
bdcd12c0
bd728353
3e3ea6d1
be1f3cfc
3db81219
be1f6376
bdaee23f
3d8a8529
bdd40859
3c00325c
3e1521b4
be26af78
3dbea753
bd422967
bd3e9d7d
3df39fd5
bdd72ec1
bd988321
be112410
bd824909
bc465ef9
3c339911
bd852d70
3d9bb43b
be0c68d7
bbbdeb5e
3d99b9a8
3e42c8fb
bda8b932
be164e54
3e1beb78
3dcca7f2
bde99920
bd86787e
bdfb0db7
3cb970be
3df25c3b
3e14c59f
bde146c3
bd086755
bd9814a5
bc1fbcb8
3d3d32f2
3d5ae6ee
3e23b863
bddcbbcb
3db0702c
bdc4eada
bd5ef147
bc163a94
3e2c9bb4
bd57d09e
bd555884
3e1a6d2a
3e2c64e1
be1040d7
3e04fa3d
3e11a685
bdbb7f43
3e1e7227
be245009
3dd80c50
be39dec0
be2695e0
be0003ce
bdcdd067
bdcb4131
bdaf2e24
3e454344
3d99e6f5
3e09a786
3d5f6e6b
3d237696
3e0de141
3da0862f
3d2fe265
3df93b4b
bd1e561b
bd5109e2
3d4fdd6a
3cc3e534
bdff30c6
3e114b84
be18331b
3d519aa0
3e292c1a
3dc8e751
3c6089ed
3c57f785
bd68d5b1
bd9f809c
3da599c6
bdff4cb3
3dabf586
3d617d02
bd8480c3
3e052203
bdcd4037
bd9d4387
3bb83fac
3cfabd15
bdcc8b5e
bce2fc5d
3d3ff59d
be1ed55e
bd24a12c
bd7ca227
bdc9c487
bd9af865
3bd6554e
bd407dad
be2b5dfd
be423c19
be15eff9
3daee945
3cc6f640
bce7e7ee
3ccc8747
3dd5c5f0
be06258f
be03cfa9
3e1aef30
3d238537
3d9454e8
3e0eeb1d
be19506c
3d8e8252
bcccc1da
bdf88bb0
be2d16ff
be0f6550
3e389992
be2c9ec9
3d13a61b
3e193064
3e3c5f08
3e07f16b
be01f4a8
3e3b7fb0
bdacf720
3e187ee3
3e03d6ba
3d8334c7
be0cd860
bdf7d707
be3bcfe0
be1776bf
3d4e7633
3dcb2076
3d9932ea
3de184a4
bdd96ada
3e344de1
3da01c78
3e41c6c1
bcda3ba8
3d1d015f
bda75ea0
3dd69928
be107e80
3b9a3307
3dcb78be
bdc7a4e9
3cd94ff4
bd04996d
3dbc32a0
bd6786c7
badf6c18
3cdfa272
bc977458
bd225316
bdf96004
3c8a1f4a
bd77464f
3db439e4
3d959628
be19117e
bbb23e21
3e159b8c
bdb66c79
3cd8fdc1
3dd88e1b
be33ecf8
3c28d557
3cff992f
3e150d55
bdcceeec
3dc55ace
3d80f2bb
3dbf72ed
bd02568b
be0a6c3e
3cab72e4
bd4683fd
bcaa8656
3dde6863
be16c0b3
bdac8a97
3dfb1a2a
3e22dcd8
3e1b3aa8
3d0d3c4b
3dca07a8
3d5f7e97
3e3a0afb
3d8271e4
be1209ea
be072efc
bc1588d3
3ddf4399
be024eda
3e1fd146
3e01d65a
be27b2f9
be28acf7
bdf3b5a8
bdef1bd0
3d5b6cfa
3d4c7e5c
3dc3037e
bb230a0a
be029344
3d1c5149
be17f8f8
bd229921
3c9718ec
bd9e07b3
bbb8adde
3cbeaae5
3d88aff2
ba7723cd
bdb02717
3d97ba8f
bdac6def
3c3bf39b
3e22d35b
be209d13
3ccd4b35
3dde8fe2
3dc390bb
bc2923e6
bd8d0300
3cefafb2
3dd43e46
3d33ef15
3c06d23f
bdd816e4
bd6b7ba4
3d4521ba
bdcdf9e8
3cda78dd
3cb0da64
3def9c0a
3df59f0b
3e01bba0
3cfc3075
bda5c6d7
3aac180a
3e2049b2
bc9108ae
bce2e279
bc4d2012
3e1f0d58
3dc66fa7
3d8f0020
be1f116d
be00dedd
3c62dcdf
3e0d61f8
3dd19ce1
bdb221ac
3df7cceb
bdc33b65
3e040c0b
bdf87a4d
3e00d510
3caf07cd
3d303444
3e37c270
be1d5ce3
3da33a7f
bcc0e7a3
be069919
bd6388c9
bc8ebdf8
3e2da444
be376264
bcddc426
3e0e50b9
bd2e961f
3cfda13e
bd6fce62
3e161008
3dfdafe2
3d2bbe27
bdb883c1
bdabcf66
3e25f82b
bd5170c4
3c6b3a74
bdc4141a
3c0d6e7b
3e1fe104
3d4772eb
bcf9d526
be2e5c69
3bca1864
bb7a96cb
be1a2deb
be243551
3e3bdad4
ba2d8803
bcf5709a
3ce82f11
be54a67b
3df0ac67
3df30bbe
3ce1d170
3db15686
bdafd7b0
be16de57
3d8cd3cc
bde2d4fa
bdd07570
3e03be81
be019f94
be2db512
3d8d85f9
3e009a5a
be2838cf
bd46577e
3e22f1a6
3d11ecda
bdc850d5
bde11ce9
be0c3216
be12ea29
3de2049b
bd2a29b6
3e07c93d
bdc40253
be0deb51
3d4919db
3dd236ee
bc2d312f
3d01e968
be0b29c5
bd2c0299
be28843e
3d51f96e
3c3c5333
bda73eb9
bcfd4e31
be1a180c
be1c476c
3db187c3
bc28270b
3e3dc6c5
3d86b0f2
bdf83270
bdd01618
3e2259b6
be3b1a69
3d2b9a3b
bcdb2c02
bd90a692
3dcad956
bd81b179
bdda2aa6
3d712ef4
bd6f31d4
bc269a6d
bca7755c
3e1d4f7f
bc2a4d46
3e0cc3dc
bc775d1d
be2c3de6
be10f5d3
bd5248f5
3e2a0176
3c0d5373
3e1b661e
bd6efa3f
3e437a44
3e32f58a
be017fab
be19178a
bd66471d
bcf166d0
bc8e1072
3e291692
3db0eb34
bd87114f
bcbf966f
be225f5b
bcfbfd72
be32b7b4
3d22322c
3d9f1cf5
be1da7ec
bdaccbd2
3e1ee87c
be02f3b0
3d273a90
3daece69
3d9fa1b8
be2ffddb
be1accb4
be1cef5a
3dd8db27
3ce78ccd
3da77870
bdc4c0a8
bdbfa5f4
be0c672e
bdb3f839
3df0b173
bdd7105a
bd5d0cb0
be072d35
bd7d6623
3e1a170a
bc7f2955
be315894
bd9e0c17
bdf6814e
be049cad
3cdf9baf
ba4e2ab7
3d93f0bc
bcf1d8f8
3e227f4f
bbd29d54
be18504e
3d741483
3d3d179b
bcc99154
bd25243d
3e47fc46
3e4ebaab
3d7adc98
3d029fc7
3d22dd52
be101e4d
3e057323
bca86083
3e000193
3e2e3899
bdd00a1d
be3fd619
bcf4b91c
3e22f55a
3d18eb78
be11000e
bd58cabf
bd0401cd
3b9b578d
be1d0169
3d41a4a3
be31c0d5
bc85a129
3d51ecf0
3e14b678
3d002366
3e22f247
3dc7422d
3c50cf1e
bdc45831
bd277738
3dad60f3
bde657a8
be62c6ef
bc4298e0
bdff5c78
3df4761b
3dd532f3
bd8f3a71
3dba76b1
3db3175f
be08c19d
3d843ac9
3db3e417
3dbe6f14
39b3138c
3dc6daaf
be24ec30
bdccdcbf
3de459ae
bbd59a97
3e2994ba
bdcac64c
3e12e4ab
bd3ed2f7
3df6c334
3e1b19bd
3d86b21c
be32ad67
3d04afc9
3df0c8c8
3d02e1a3
3db05337
3d8844c6
3cadbfae
bdf38732
3e01edd6
3e6af945
bdf3902f
be0e2845
bcf7942e
bc602015
bdd2f49d
3d9fd0b5
3d60e431
3de37522
3c31939e
3c315949
bd83d735
3d492d91
3d96d526
bcef20e1
bdb5e94f
bd4ce495
3de6c921
3ddfc632
bd927da4
be370bd6
bc99737d
3aea5b71
3e007a56
3d04ad52
bda3169f
3d40c529
bc984712
bc74284a
3db2e818
bdb68ee9
3d2ac132
bdad928b
3dd9b338
3e4842f4
3dedb9ea
bbd44a4c
3d4e5af3
3d9d3fa6
bcaa4c7d
bbd49341
bd91ee3f
bcc344ba
be13a616
bd7128be
3e26e697
3db77ac1
be1fbd2f
3e11279f
3da178ab
be0caf18
bd950032
bd926892
3d7f71f3
3de216ab
b87e71a4
3d2caf32
bc95dd61
3c90a50c
3e23782c
3c0384cc
3c2c90e5
3e2aff99
bde588b5
bd69052f
3d553044
bd8faeb3
be241f38
be0961b2
3de66da9
3c9dc73f
3dfa9060
bdc57de9
bdfb80e8
be24f4e8
be1463a1
bcfb9e46
3e3becd2
3cddc400
3d2a3726
3d81f9f9
3dc649bd
3da021ff
be0c0df2
bd17d10a
3e0ae2e8
3e143f22
3daffe16
3d40b343
3d7453a7
bdfbbf9b
bc91bb66
bd9a55b5
3db36271
3e165056
bded76bf
3dcbcb7d
3e3d5762
3dad1429
bdb47eb6
3c9b0bc2
3e3460ed
b94c4642
3cd1869a
3da0e950
3dfbaafc
bdc2d531
3d1a102d
3cda429a
3cbd6b17
bcd4e7e1
3debb9d1
3dcc5df2
be0850cb
bd9a3b2f
bd95cadb
be0c28c4
3db129fd
3dbb6b0d
bdf7aafb
3db5005d
3e35245f
3e065a5f
bdc026c8
39a0fe93
3d75b9be
3da4a2e5
3d2aa03e
be27f682
3d38a599
3ce28941
3dcd81f6
bd9de864
3dafb0e1
3e2be798
bd4a47de
3c998482
3d85a6ad
be2df87a
bc29d23d
3dd0430a
3d11b7dd
3dc5215a
3e22deae
3e0a2f03
bdbe5a8e
3df8c84c
be1861b3
bde83eb0
bd371967
bba3a83f
3e1096f4
3e20f152
bdd0ac92
bdae69fc
3ce79dbc
badfc105
3d7cb40e
bdadf6fb
bdf98ffe
bcb17c58
3e34484e
3d464e00
bdb40cbd
3d6104d3
bdd3a44b
bde8680c
3e1ed6f5
b98f8614
3d5b5070
3d9bf08c
bd8b8e96
bda298d4
bd9eccb7
be1494a6
bc8d4364
bb52af24
bdea31a6
3e09938e
be2cb0e4
3e0bc04d
3e136dfe
be29c847
be2a82f4
3e297e76
bcdce46e
3cb7f2d9
3b4204a6
3e131b4f
bd54c597
3b6ec38b
bdcd5c56
3df103de
bd9a5a2b
3dc3398a
bde35fa9
3e0bb958
bda18111
be12aa06
be1d4769
bdd6c6ea
bc7ea65b
be0ef28b
3e044487
3d949757
3e1976f6
bda9ac8d
3e0dcbe2
3e21e083
bd627b34
bd262b20
3e14b6dd
3e4099b0
be14d1ea
3e1fe53f
3de2f07c
3e2d777f
bd5fcfda
3d4876c7
bd814114
be2a83ba
3e32a4dd
3e34bcc3
be1def6a
be018e20
3d4f693e
3e142f76
bd75d397
be06865d
3c161f6d
3d9c580d
3d3ffb93
3e1a8bb6
3e37cfe1
3cedefa6
3d8d4d4c
bd424827
3d88c39f
bdb449fa
3dd1ba21
3d068091
bccd5911
3d0e6c59
bdcaa01a
3d7b6a57
bd3d1e34
3d6ea6ef
bd753a1d
3d3e3ce0
3e0c1648
bdc6c478
bdf10d9c
bce23044
be28e2ba
3d3881fa
3c0247b0
bda8d5a0
3d35b5b4
bd806da2
bcc86753
3e052dd5
bd6f7791
bdfb8802
be22ede9
3d9fc973
3d8a3a2b
bce6e2b3
be4247cb
be2627d8
3db844a5
bdcab7eb
3dd406c6
3ccf6478
bd2b0586
be24534c
3e1f4448
bc7a9a62
bb0b5ed6
bddffdb1
bcafd236
bcdd4378
3e26663e
3dc3e050
bdb0af4f
3d81f8c2
3dd6d3f2
3d0b9c1d
bd8f5f24
be01f79c
be1d12ed
bd6e4e6d
3e17b084
bd3878c9
be0d3f7d
bde6e743
bc987038
bd060d4a
bdb6fb72
3d5b15df
3e21c775
3bd9a4f8
3d9d105c
3e30cd54
be128731
bd3105b7
3d72a218
3e14dc27
3dbb6940
bc5248f8
bdb12092
bddfb46f
bd02aaf7
3dbe37f2
bda7b61a
3e21f442
3d1dd38b
3de7f89d
be2a7531
3cdc383d
3d268810
b9b0c7b1
bd7e436a
be33b1a4
3dacf01a
bdb49315
be2861e4
3de34574
3e081fb5
bdbdc1eb
3ccd07ac
3dfa1dfa
bcfebb42
3c618c28
bdd1694b
bd4bac2b
3e0a64f5
3de163f1
be12c18a
bd978bf9
3d853620
bdcab197
be2212cb
bdbf879b
3dc5370f
3d34b797
bdead1fc
bd4c0973
3e0b07d9
bd90f1de
bd90bfec
3cd954d4
bc4a27ce
be1183ef
3dd587ee
bd944cba
3e02d58f
3e1cfc10
3de42e0d
be1ccc13
bbeb4cb2
3dd3fc0b
3e3ee38a
bd43098a
bcccbe16
3cb99d9d
bdd729a1
bdef178f
bd811ae8
3d10756d
3e150457
be694364
3e2a180f
bdec4677
bdba78d5
3d1d00d2
3d748248
3e0b1625
3e13069e
bde8b9bb
3e3aa6f8
bd2836c9
3d551497
3e2edb9e
bc4cd0ad
bbec7bb3
bc33f519
3c96db0a
be232d9e
3d8a833a
bd2ae8a9
bda49743
3d1f3087
bd8c0b6d
3e13be9a
3d0f1ce8
3e3b23a1
3e1f3dac
3b74430d
bce6978d
bc8efca8
3d885761
be12704f
be07ee49
3d99ef1d
3c91a155
3e1d955c
bdd646c7
3c73071f
3e5691bf
3dfb6b58
3d3a0d91
be29a2d7
3e3f5c13
bd81e12b
bd7e6f67
bd65c42a
bd841ac3
be06b014
3c14d5dd
3e1fce51
bd98cd96
bd5247f0
be1c529c
3e140bc2
bdf79be6
3e2dd7d1
3c769832
be06908b
3d51c73d
bd84496d
bdd95308
bd635cc9
be03ed04
3c8b44de
bd770ede
bdcfbdb4
3da96035
bdf8c3e5
bd3c8f87
be19649a
be2fcd10
bde38c74
bd8c5549
be0f7932
3d270093
bd811ac7
3df5c2af
3e3e5940
3dafad04
bd23d730
3e1bf8d5
bdcd3224
be0439bf
bdba9206
bdee0a04
3dff446b
3cc11085
3db16d3b
3d0089f0
be006e9d
bd7280d6
3d7f356c
be14281c
3d5ba286
3d3716e7
38411446
3da6295d
bdc134c3
3d700813
bcbc9e25
bd99b9bb
be3c0bc6
bdc9de32
3e263a38
bdf3f9f0
bd8d20c2
be1adc01
3e31c4b3
3e361697
3d07e298
bc10c67f
be301206
3d9009bd
bd1c6b3c
3da5c7ad
3e1529e6
3e156e2c
be343390
3e3c9307
bdd5ea38
3cfa8802
bd46c1de
3e03d9de
bd38023a
3dd6daa9
bcc7f093
bd6c33df
bc856925
be102955
3dbe8afe
3e53dec0
bd627385
bd1c9af8
bdf88848
3d9d0a11
bbc2cf7c
be242f34
3dadff7f
3c41d848
3e0efc6c
bd4e2b00
3e15caa2
3dc8e03d
3d0c12db
3e11b2cf
be12d85a
3d0fe109
bd55bb4b
3c1b47dc
be237fe6
bd169ee6
be1c2e8e
bdf7aff1
be50313e
3dd9d347
bc3702be
bbca364e
bbf88f88
bd353d17
3d35fe7d
bc7e2b79
be2c3f00
388f0da5
bd022d95
3d938792
be13b340
3e198c27
3d55c993
bb03cd99
be01ab23
bd57aad9
3e26d334
3de461d4
3e430038
3dd57492
3e2d6799
3ce08b01
bd7711e5
3d549ba6
3e07cd66
3ddb501b
3dd2e9a0
3e161223
3df51510
3c2b07c8
3e2d1871
3d07498c
3da5a74f
3d09d5ca
3dc4557c
3e257422
3c99e100
bd4258f0
3e2a357c
3d341225
3decc9db
3c43cd49
bcaebba5
be36c42a
bc993e66
3db89068
3c36317e
3d8d1360
be14c084
bd21e206
bd8ce80e
bde91c77
be183ebb
be2f50e7
3d6db6da
bd8a8270
3dc7de89
3e4b4ea7
3c618eda
be04b3c3
3e197f7a
3ba018c1
3d5740dc
3df37753
3dbe8a82
3e0e76eb
bdff9c77
3e13029f
3e2208fe
3d13de02
bd6377c3
be25178f
be08e4ee
3dcf13a5
3e27bd29
bb5327c5
be252673
3e39c8b0
3d8f5528
bdf7bc94
3ce0692c
3d002fe0
3cb5162c
be29984c
3d73112c
3e1f7e71
be04c3aa
3dce4fee
bd24517a
bcb35607
bd60f2db
bddcc4b9
be0ff400
be0b48a9
bde63c47
bbc4453b
bcf3cbd4
3e08d08c
3d959dfe
3de776a5
be2091a6
bbe72a8b
bdab6598
3c966e75
bcb8f94c
bdb665a9
bd6f3bbe
3e0f2e75
3d95dc87
be0bb8d3
be39845e
3d809301
3dc79738
bc34406d
3e064398
3e120662
3d0e6227
3cd4a6ed
be069392
3e15279c
bdddfbc5
3d7edaa3
3e25b816
bbc603ab
3d343d43
be1faff1
be1a95be
bbd69e5f
bbff4ec5
bda6adab
3dba86ed
bdfd20ed
3dbab409
bc94779f
3e30c300
3d9212e0
3d619037
3dc4810a
bd3ffb6b
bbd0fb1c
3e23cb7f
3e2c846b
3ce2243e
bddac6d2
bd0c612a
3d22b180
3acd6e4b
be2a4d26
3e2f01c4
be111551
3de24c57
bd96a4de
bd82c5b6
3e1d90c0
3cd70289
3d9236b3
3c5deb76
3c124896
bd38fe4b
3c8fe895
3c3bd685
bdcb3535
3cf80209
3db0e212
3e010477
3b154f56
bd9d19b1
bdb86bc3
bddbc0e0
be050f91
3e2da14e
bdbc507e
be19e8f1
bdf3decc
3c541755
be3b8ff3
bd27373e
be1436d8
3be82bf5
3d77a169
3d57c990
bdff637c
bdc78d96
bdfca78c
3d1cf6f2
be178012
3e2d2c76
bce6ded6
ba837416
3dcd909e
3e3d41d0
3de97cee
3dfea6ba
3de312f5
bc5d9116
3d81d105
3df36775
3e08b9b2
3c90e8f0
bd3c75d7
3c34b9cd
3dc3f7c8
bd65314c
3e0dba67
babe2018
be1c622f
bdd3da64
bd99ff5f
3d682055
bca13fc8
be0e854e
bdc04ed9
3d40f158
bc7fcb13
bc8093f7
be1ba267
3d32e6d8
3e0ab67a
bd259650
bd61b7eb
be090cae
3c95d022
be177561
bdb35d0a
be172ffa
be02b732
bd091b80
bd8f45b2
3c61f33c
bd7c5ed6
bc188ec7
bd8cbaee
3cd28159
be4e9b9a
bda6f4cc
be21c3e5
3c862f26
3cfdff03
3d05dd48
bcea7e0d
3d98fd4e
be3a3dde
bddbd473
3d0cb49a
3e012a12
3df2e305
be48f8b6
3e2bf0b8
bd9c87cb
3e387777
bd417eef
3e060b1c
bd951159
bd8d7736
3df96f44
bdca62b6
bd9cc651
be27b0c5
bdd92544
3daa44b2
3e20f9e5
bd7285ed
3dd50b27
3dae024d
bcb94816
3df8a4d2
bdfffabb
3cbc44f1
bde55ac4
3d9126ea
bdb01125
3d768854
be0534cd
bdba0f3b
3d394c43
bc76ff47
bb233e4b
be27083f
3d96b5c6
be5f74c7
3c618374
3e20caba
3da50886
3e0107f5
bd28e2e7
3c950500
bbd3cc56
bd09c5ee
3d11ed72
be0ad3da
be20fc2c
bdeddb6a
bdfbe506
bcacdab9
be0aeb0b
3ce546f3
bbf989f7
3dee1dd3
bccc6197
bddd0aa4
3d2ad023
be3cff0e
bd02d073
be08067b
3e14e22c
3dc0da4f
bdb8dae3
be165918
bd9396c2
3c04dec8
bdde636b
3d0df8d1
3e06d653
bba626b8
3dc91dc3
be090454
bd25e110
3e1e3ab7
3e2a934d
3d7c631e
bd2d9382
3d0d9066
3cf2260f
be253df8
3e15e279
bdfe3d41
3d79dc37
bdd4cffa
3d8ee9b3
be003a5f
3e1abc0a
bd034b74
3da82137
3db0e757
3e077950
3d110058
3da9cda0
bbb2f0ce
bd62aadf
3ca836a0
bc54e448
39f526ac
3d751980
bcb13c2d
3e2ef22c
3cb027c8
3c7cd0c4
3e15e6c6
3e26216f
bdad4231
3e05ccd5
3a654c51
3e2c707f
3e1c154e
3ced23fe
bd1c8f05
be1c774d
bde095eb
3db5c484
be21907a
bd916de3
3ccef63d
bc10b3ff
3e06407c
3dc8249a
be006979
bd26c07a
3ccd20c8
3df4921b
bd9adf91
3e2e28b9
be0a4ec9
be05fa9c
3d417cc0
3da93056
bd18f867
3e226590
3e061a87
be2d86d4
3e1239cb
bdc0d158
bde26d82
3e274a9d
bd602258
3d74faa8
be29616a
be1f3634
3e52d9ea
bde2eee0
3d306f41
3e1f3c67
3db5cf53
3d5375ce
bd20ba0b
3c0968c8
bdf5cc54
bd833762
3e02d576
bd1b843c
be3b9ec4
be169fb0
bdeb9d53
bd8f584d
be219c15
be183a6c
3b9a36a7
3c08959f
3e43bfd3
bd01f221
3dac3d25
be075a35
bda68e9a
3db64b79
3e100566
3d135905
3cebfce9
bda14716
bda6c45e
bbf67c26
bc072857
3d311f4d
3cc469c9
bda6bf7d
bd8f4678
3e3fca98
bde6ac15
bcdf6dbb
bdaecf9a
bde9a928
bde1f854
be28e21d
bdf8726e
3d2217be
3d92c2e9
bdaf95e2
3e0f8742
bdc898da
3e58b491
3d89e96f
bd123258
3d42a7db
3d8f2674
3cf2bbdf
be3dd028
be0995e4
be34118a
be06d725
be2fc267
3df23e0a
be4e080f
bdf0bd1f
3e0833cc
bda75aad
3d0fb526
3e16a9fd
3e29f08e
3da6676a
be2d2685
3dec6fc3
3cdb11cf
bce4a920
bd5fd869
bcfe193f
bd17d685
bd472a48
be39d785
bb5944cf
bdd612f8
be372b9a
3d88416e
3df38a15
3d0190ef
bdfa4d0a
3dc45cbb
3d1d105d
be1b774f
3d2240a0
3e2c08d5
3dcd8d74
bda5135f
3d77135f
bddb6491
be141988
bd4a7783
3bb67378
3e242079
bd8af1a0
3e07d0fd
bd477d13
3e2f8f75
bde50fe0
3e33b337
3ce11a8f
3dbbfb1d
bd7d8755
3d518547
3c0e1ebc
3d00f3d7
be27de61
bd0d5076
3e39b396
3e2a6a41
3e04cdc1
ba946118
3e013247
3d78cc37
be18b272
bdd4f76b
3d5300f5
bd9200cf
bdfdc903
3e1e458e
be2e3e67
bdc7fa14
3dacefbd
3db9b837
3e231947
3d8775a9
bdd0dca8
bdf1ae3a
be23d081
bc9dec39
be0aac0e
3d9f341e
be1e133d
3d11a6c2
bde6f88e
3dbd3ee2
bd866749
bd3f21df
bc9f943d
3c9f57e8
3d313e7c
bdf2c336
bdb6c04c
bc5786e7
bbe46d66
be037a1d
be13f2a4
be21ff53
be03f414
3e26cdfe
bd949586
bbacf68b
bda4f1fa
be2c0652
be0c3d2d
3dea3346
bd20e7de
bb86822c
3a78de8c
bad225e6
bdf3606d
bd089d08
be0f659e
3ddd5bf4
3db9aacb
3e372147
bde328b6
bd35a566
3d9a4d13
bd192f7c
3d3052ed
3d9b8dc5
3a5b80c9
bccb1311
3e322650
3e38413d
3d83eeb6
be4776b0
3dedf8b3
be2876b2
3e24b63f
3da84c27
be0042be
bdd0309d
bd461f17
3c2ab533
bc049069
bddf8350
3de7c554
3d235e15
3d526103
be040ef7
3e1802a4
3e166d8e
be06f6ec
bd9449c6
bd2cedb8
3d8ad205
3df3c62f
3ca10799
bdb9e25e
3e0f104f
be6252f7
3dea0e51
3d1db2b4
3dcd1294
3d16ace6
3d660c33
3e1521f0
3e1b2639
3dcdf325
bcaef570
bb8525f6
bd042b6b
bd637cb9
3dd73d52
3c62ad75
3e19f637
3e39f395
3e2af760
3e1ab824
bcafdbde
bd64748f
bd4056fb
be36aad7
3ddb9065
3dbc1c50
3d3f7b42
3d8703e6
3c4ff6b2
3d2afa18
be180d41
3cf06b87
bd921363
3ce01de1
be1a6efc
bdcd0b44
3cc052bd
bd55b582
bd9ffa5c
3dc25c26
bdabc38b
bb4fc6f8
bde0324a
bd279fe2
3d8a9f58
3d4062ca
3d425a28
3d6f3d6b
bd6b2a9f
3df5935e
bdefcb73
3e2184d5
bd8cb127
3e18f0b0
3dc72bf3
be18afd7
bd7449bc
bd6eb6b4
be21d919
3cc6eab2
bda90b37
bd0f8b72
bd1987b2
bd107f3a
bc9fe4b4
3d845411
be003c54
3d9f93e0
3d21cf95
3df1a378
be1bb588
3e559819
3df03599
bda562a9
bd69a926
3e259ff8
3bbd8f26
3db41a20
bc85bd75
3d8cf860
bce42d5a
bcfeef68
3e0ac0bc
bdd83943
be23236f
3d48cff5
bdcad149
3d9bbea7
bdb9cefc
be0f0b7b
3e0fd6fd
3d1a285e
bd446934
bdd27b2b
bd890468
be015d77
be0b5a1e
3d447c79
bd57a749
bd8559ea
3cb463de
be28bc30
3d0021e4
bcfb9ec6
bdc62e8a
3d90fa69
be5999bc
3cf01eb5
be0a1d27
3da7df3d
3e1570ec
bda839ae
389b0201
bdc91d39
be16f2bd
3d835551
bdc658dd
be391918
3defd178
bc8cff9c
3dc85237
3e089620
3db79cd8
bd9ab6cd
bd27dabc
3d133996
3e363a8c
3dee206a
3d7d0cd7
3e3bd7b0
3e2f4053
bcc3ec32
be004a53
bcf5abcc
3d239112
3e40d28c
bd0e5ab7
3d330de7
3d549a61
3e223a8e
3c9f823e
bd6b9b1b
bde3e8f6
bd9e07e3
be1f4e30
be366895
3daa511a
bdf4913a
be006c58
bd9be707
bd272eb8
3dc7ebf1
3da06437
3e481a9a
be1a986a
bd1ee375
3dd7efb0
3e123349
3da5fb73
3e29af95
3e2dfc98
bd4af608
3d55c3e0
3e01d576
3e167f9e
3e03b734
be3561d8
bc3489a8
3e299713
bde8d277
3d144643
bd1dab4a
3dcecf0a
bd7c74a4
be1606e3
be15ef5b
3cfc7767
3dde5809
bd42db1f
3d750bf3
bdf5f650
bd159578
3dd46cdc
3e3695ea
3dacdd25
3b1c6ad9
3e0d6189
3da02568
bdaf0c99
be06912d
3e22f60f
3ccf7774
bc0e0d2a
3e2bc65b
bd7ed3a7
3d5b2050
bd8953c2
3d70bad7
be13c2b5
bda37906
bdfe540b
bdd48749
bd0db9da
be2d567d
3dbcb0fb
3cebfc12
bcd874dd
3d5729df
be16b641
be055036
bd9a1bf3
3e0dc813
bd564d40
3cb35825
3ddc143f
3dcb0a67
3decd186
3c9fb9c1
bd7072e0
bd663ea1
be1cac42
3c452a98
bd3438da
bb4feef9
3d996125
3e1ae8c6
be1a088b
3de68968
3dd71ff4
bcbefc30
3d2fef79
be00d800
3dd78221
3d974028
bd390749
3d3b5c3f
bd6d21a8
bd8e0783
bdababaf
bde0c4ee
bdbb86c1
bd1b2c0d
bd6521b7
bd654bb5
3e3441cf
be37bbb2
3d9232e1
3e20629e
3e07a8f1
3dd60664
3dc811f6
3daa3147
bcce1e8f
be1e9cc0
3d158a05
be1e0dd8
3c99633c
3dd00e2f
3d85989c
3e1ae844
3db9f51b
3dab0741
be099d4d
bdb7f2a8
3de57d57
3e15038d
be39b725
bb523538
3d56aea9
3caead55
3da1006f
3c33abc6
be354c42
be068aeb
be086ca0
be197c95
3dd49742
3ceea035
3c23b932
bd0c9d8f
bce73dfe
3d09a573
bd999c4f
be123255
bae466b7
3ca4161a
3a9eb484
bc6157a6
be08781e
3c12ba85
3dd83a49
be2bf73d
3d8cac28
3d6ddcb3
be254f2d
be1cfb7b
be36f7f4
3db46be4
3e0e686b
bdd8bb15
3dc9759b
be2ea35d
bd959b4a
be31fc3f
3e0451b6
3ddf2ed6
bc93b9e9
3e1f4443
3de89fb9
3c0b40a1
3da8701b
bdeda792
3e020a0a
3e1bd557
bcbc698c
3db15e5a
3da89ebd
bccc7dd5
3e4607b1
3a53ebf9
3cdae877
3d0b2f24
3db3a153
3d94ef0b
3deb906a
bd42fccc
3ad9752f
bdae2dde
bd418775
bdd01cb4
3dbf3b75
3e4ba091
bd8f8391
be23f4db
be075593
bdfd54fa
bde147ed
be0a8178
3cbeb40b
3d5aa86e
bdbacd37
bc50c3b5
3e2d2c8a
bdb8ba5c
3dff99b1
3e0d94bf
3e024b04
bb0c0c9a
bd9d7784
bd750ff9
bd952580
3e21c7a5
3dfe3aa9
bd9854b4
bd683f44
bd836b9b
3cf085f9
3da453a9
3c7e524e
3d2fbb0d
3cf7ea43
be1bc86a
3e1aefe9
3e28ff20
3cda0aea
3e37f753
bdfc815a
bbbf61cd
bbee5408
3e07535b
bd4b781e
be28543b
bc2f7772
3e182a1b
3e3445b4
bd599af5
bc29f8ad
3e1fc9fb
be2a376b
bd781bc0
3c6982f8
3d9bd0de
bd83237f
3d94ad1f
bdae3535
3d9f205e
3dfa0d44
be47ab91
be117e97
bc911576
bc98bbd2
3e0b70c6
3ca0c3a2
bc54d32a
bbe7d5b8
bdf8a65d
be159583
3ce3413d
3dd49c64
3c0128a2
3c77e4e9
3c58f6dd
3e4ca4d0
bd1cf81e
bd835f5c
3daec489
3dc22710
bd6c7299
be1ad1dd
bdb8e8c7
3d1933d1
3c91b948
3e462277
bdc09d6a
3d9939f5
3de03f94
3ddd5dc8
be3fb086
bda74ea9
bd8628f6
3d69634c
3bba1f3c
bdfb95f2
bc5399b5
bd121a15
3c2bf941
be2f99b3
bc8deb1d
3e30a952
bd877e86
3d14986c
be11c06d
be4637e7
3d3ec06a
3e028f9e
be0eb506
bda48ffa
be02cf9e
bd67043e
bd879286
3dc5128a
bd975f72
3ca7813c
bd382298
3e09ecb8
bd00ec2f
bd82b7a0
3e0c0937
bd5e96cb
be43e0f0
3deac300
3e36995e
3e08f470
bd97afc3
3ca08c8a
bdc8d139
3d83bded
3e282ba3
3d05633d
3dba6593
3d89f296
3c92c409
3e1f03e1
bcadbb67
3db373f5
3dcb7b2a
bdf13747
bdfe963f
bd2b6b10
bd3c1b8f
3c9a8ef9
3d8810c9
3ce3b13d
be055fd0
3db26ff3
3d0b21a1
bdcc4efb
be22da30
bc035b84
3ca14c6b
be0bf727
bd016c9c
bd13efed
bdcfcfb9
bdcf09ac
bdbf3ac7
bd0559dc
be20e0ce
bd836452
bc1a4673
3e2765b0
be283aa9
3cca5e32
bdc33b21
ba06b209
3b97107b
bd21c176
3dc07d8a
bdc76b5e
bdb60893
3d623da2
3d2c63e2
3daeb080
3db19b4c
bd82558e
bddc4dcd
3e13c8de
3dd6799b
be42b818
be258f1d
3d1d1580
3cc5906c
bdb059e9
bce8e99a
3d6bfcc3
bd653677
bc97cec3
3d409973
3d641977
be067944
3dac9b93
3dce696b
3dc4a2ac
3b7ab1be
3dc7662f
3dc2e5e8
3e16bbf7
bd284877
3e1c373f
be3ae662
3e1b70cf
3c6c6cb2
bdc44b02
3d47a8c4
bd9b45a2
3e1ce645
3ba3c79e
3e3fae05
bdcb3496
be365d10
be35e935
be01ac67
3e0e547b
bd69ea18
bd823ec1
3c2bd54a
3d786384
bd7bc4af
be0c4a92
be44b9c7
3d84df95
bdcfee9d
3e046e3d
3d36be31
3d923d16
3df90937
bdbc099c
3d9cf974
3db65223
ba0f44b1
3df3590c
bd5baaef
3cf0d753
bda30a30
3d2f4f52
be1cd855
be221313
3d2a973f
be1cc28b
bdd13115
3dc4d3eb
bd4c8486
bd480533
bd566a4a
bdc7397e
3da12cad
3c7465be
bd1c972c
be00fede
bd61992e
3d797cae
3e0b3d8b
bd0c8ebd
bda149a2
bd7f7404
bb6ebd71
3d2875d2
be0372ae
3d606cb9
3cd45665
3d688ab8
bdec2632
bcb6e5d9
3dd35e8d
3d47be02
bd2d6006
bd97eacc
bc9fc2a2
be118b51
bdf13c22
be1af32b
be0f7ec0
3df74812
bb6d7e7d
3d6a715e
be05bab7
bd22e863
3d129c87
3c20aaf6
be420ab7
3ddab25c
be17f731
bd82ae88
3dc5e601
bd955d91
be049fe3
bd3410a6
bdaef57f
3c59c557
3e22678f
3e12ec2e
be2300a4
3dedff0e
3e3f2198
bd44a5e6
3d9d59b7
3e136e8e
be0cf992
be189d32
bd4d54bf
be0dd2d9
3dc41e13
3d32425c
bccf29f9
bdccc9d3
bb21f79f
3e023f99
3df9b9b5
3e32bc79
be38c321
3dd6060a
3c338451
be233c36
3e16de4a
3de8a9da
3dfefad1
bbf669d9
bdd59b01
3e1b5f28
be290832
3c03d5dd
bde3f0de
bdbc3913
3e017d9b
bd27a8d4
bda8aa24
3cb1e788
3e299eee
bdd907af
bd47d3b5
be0e5035
3dc5d97d
bd1b0594
be420a6c
bdfdb561
3d72329b
3d3e74d0
3b9884c4
3de2fdfe
be21bf32
bdd0a139
bcf0ab03
3dafd4ba
bdb624af
3e215520
3dd4fe58
3d1cdc6e
3e03b6d1
be1dc229
bdd30395
